{
  "0": "\u0000",
  "1": "\u0001",
  "2": "\u0002",
  "3": "\u0003",
  "4": "\u0004",
  "5": "\u0005",
  "6": "\u0006",
  "7": "\u0007",
  "8": "\b",
  "9": "\t",
  "10": "\n",
  "11": "\u000b",
  "12": "\f",
  "13": "\r",
  "14": "\u000e",
  "15": "\u000f",
  "16": "\u0010",
  "17": "\u0011",
  "18": "\u0012",
  "19": "\u0013",
  "20": "\u0014",
  "21": "\u0015",
  "22": "\u0016",
  "23": "\u0017",
  "24": "\u0018",
  "25": "\u0019",
  "26": "\u001a",
  "27": "\u001b",
  "28": "\u001c",
  "29": "\u001d",
  "30": "\u001e",
  "31": "\u001f",
  "32": " ",
  "33": "!",
  "34": "\"",
  "35": "#",
  "36": "$",
  "37": "%",
  "38": "&",
  "39": "'",
  "40": "(",
  "41": ")",
  "42": "*",
  "43": "+",
  "44": ",",
  "45": "-",
  "46": ".",
  "47": "/",
  "48": "0",
  "49": "1",
  "50": "2",
  "51": "3",
  "52": "4",
  "53": "5",
  "54": "6",
  "55": "7",
  "56": "8",
  "57": "9",
  "58": ":",
  "59": ";",
  "60": "<",
  "61": "=",
  "62": ">",
  "63": "?",
  "64": "@",
  "65": "A",
  "66": "B",
  "67": "C",
  "68": "D",
  "69": "E",
  "70": "F",
  "71": "G",
  "72": "H",
  "73": "I",
  "74": "J",
  "75": "K",
  "76": "L",
  "77": "M",
  "78": "N",
  "79": "O",
  "80": "P",
  "81": "Q",
  "82": "R",
  "83": "S",
  "84": "T",
  "85": "U",
  "86": "V",
  "87": "W",
  "88": "X",
  "89": "Y",
  "90": "Z",
  "91": "[",
  "92": "\\",
  "93": "]",
  "94": "^",
  "95": "_",
  "96": "`",
  "97": "a",
  "98": "b",
  "99": "c",
  "100": "d",
  "101": "e",
  "102": "f",
  "103": "g",
  "104": "h",
  "105": "i",
  "106": "j",
  "107": "k",
  "108": "l",
  "109": "m",
  "110": "n",
  "111": "o",
  "112": "p",
  "113": "q",
  "114": "r",
  "115": "s",
  "116": "t",
  "117": "u",
  "118": "v",
  "119": "w",
  "120": "x",
  "121": "y",
  "122": "z",
  "123": "{",
  "124": "|",
  "125": "}",
  "126": "~",
  "127": "",
  "128": "",
  "129": "",
  "130": "",
  "131": "",
  "132": "",
  "133": "",
  "134": "",
  "135": "",
  "136": "",
  "137": "",
  "138": "",
  "139": "",
  "140": "",
  "141": "",
  "142": "",
  "143": "",
  "144": "",
  "145": "",
  "146": "",
  "147": "",
  "148": "",
  "149": "",
  "150": "",
  "151": "",
  "152": "",
  "153": "",
  "154": "",
  "155": "",
  "156": "",
  "157": "",
  "158": "",
  "159": "",
  "160": " ",
  "161": "¡",
  "162": "¢",
  "163": "£",
  "164": "¤",
  "165": "¥",
  "166": "¦",
  "167": "§",
  "168": "¨",
  "169": "©",
  "170": "ª",
  "171": "«",
  "172": "¬",
  "173": "­",
  "174": "®",
  "175": "¯",
  "176": "°",
  "177": "±",
  "178": "²",
  "179": "³",
  "180": "´",
  "181": "µ",
  "182": "¶",
  "183": "·",
  "184": "¸",
  "185": "¹",
  "186": "º",
  "187": "»",
  "188": "¼",
  "189": "½",
  "190": "¾",
  "191": "¿",
  "192": "À",
  "193": "Á",
  "194": "Â",
  "195": "Ã",
  "196": "Ä",
  "197": "Å",
  "198": "Æ",
  "199": "Ç",
  "200": "È",
  "201": "É",
  "202": "Ê",
  "203": "Ë",
  "204": "Ì",
  "205": "Í",
  "206": "Î",
  "207": "Ï",
  "208": "Ð",
  "209": "Ñ",
  "210": "Ò",
  "211": "Ó",
  "212": "Ô",
  "213": "Õ",
  "214": "Ö",
  "215": "×",
  "216": "Ø",
  "217": "Ù",
  "218": "Ú",
  "219": "Û",
  "220": "Ü",
  "221": "Ý",
  "222": "Þ",
  "223": "ß",
  "224": "à",
  "225": "á",
  "226": "â",
  "227": "ã",
  "228": "ä",
  "229": "å",
  "230": "æ",
  "231": "ç",
  "232": "è",
  "233": "é",
  "234": "ê",
  "235": "ë",
  "236": "ì",
  "237": "í",
  "238": "î",
  "239": "ï",
  "240": "ð",
  "241": "ñ",
  "242": "ò",
  "243": "ó",
  "244": "ô",
  "245": "õ",
  "246": "ö",
  "247": "÷",
  "248": "ø",
  "249": "ù",
  "250": "ú",
  "251": "û",
  "252": "ü",
  "253": "ý",
  "254": "þ",
  "255": "ÿ",
  "256": "e ",
  "257": "d ",
  "258": "th",
  "259": "t ",
  "260": "an",
  "261": "s ",
  "262": "er",
  "263": ". ",
  "264": "y ",
  "265": "ed ",
  "266": "o ",
  "267": "in",
  "268": "the ",
  "269": ", ",
  "270": "he ",
  "271": "wa",
  "272": "and ",
  "273": "ou",
  "274": "a ",
  "275": "en",
  "276": "to ",
  "277": "was ",
  "278": "ar",
  "279": "g ",
  "280": "er ",
  "281": "on",
  "282": "\n\n",
  "283": "l ",
  "284": "ing ",
  "285": "ha",
  "286": "om",
  "287": "or",
  "288": "sa",
  "289": "it",
  "290": " the ",
  "291": "st",
  "292": "re",
  "293": "hi",
  "294": "al",
  "295": "id",
  "296": "lo",
  "297": "el",
  "298": "The ",
  "299": "it ",
  "300": "ir",
  "301": "il",
  "302": "at ",
  "303": ".\n\n",
  "304": " a ",
  "305": "ac",
  "306": "ed to ",
  "307": "im",
  "308": "she ",
  "309": ". S",
  "310": "her ",
  "311": "k ",
  "312": ". H",
  "313": "le ",
  "314": "ri",
  "315": "ere ",
  "316": "ver",
  "317": "of",
  "318": "en ",
  "319": "ed",
  "320": "ow",
  "321": "da",
  "322": "so ",
  "323": ". He ",
  "324": "ey ",
  "325": "la",
  "326": "ld ",
  "327": "an ",
  "328": "be",
  "329": "On",
  "330": "pp",
  "331": "y, ",
  "332": ". She ",
  "333": "gh",
  "334": "am",
  "335": "le",
  "336": "to",
  "337": "sh",
  "338": "un",
  "339": "ic",
  "340": "wi",
  "341": "his ",
  "342": "up",
  "343": "ked ",
  "344": "oun",
  "345": "itt",
  "346": "for",
  "347": "ut ",
  "348": "that ",
  "349": "ne",
  "350": "had ",
  "351": "with",
  "352": "ch",
  "353": "se",
  "354": "very ",
  "355": "ittle ",
  "356": "li",
  "357": "ly ",
  "358": "little ",
  "359": ", \"",
  "360": "said",
  "361": " and ",
  "362": "e, ",
  "363": "tim",
  "364": "bo",
  "365": "was a ",
  "366": "sm",
  "367": "of ",
  "368": "Th",
  "369": "ve ",
  "370": "ad",
  "371": "wh",
  "372": "w ",
  "373": "at",
  "374": ". \n\n",
  "375": "you",
  "376": "ke ",
  "377": "they ",
  "378": "ould ",
  "379": "ed and ",
  "380": "ce ",
  "381": "\" ",
  "382": "ge",
  "383": "pla",
  "384": "in the ",
  "385": "gir",
  "386": "as",
  "387": "happ",
  "388": "ing",
  "389": "there ",
  "390": "fu",
  "391": "Ã¢",
  "392": "Ã¢â",
  "393": "Ã¢â",
  "394": "Ã¢â¬",
  "395": "all ",
  "396": "'s ",
  "397": ". The ",
  "398": "ex",
  "399": "ound ",
  "400": "m ",
  "401": "ted to ",
  "402": "sp",
  "403": "with ",
  "404": "ec",
  "405": "girl ",
  "406": "om ",
  "407": "fri",
  "408": "frien",
  "409": "ur",
  "410": "wan",
  "411": "som",
  "412": "was so ",
  "413": "Once ",
  "414": "st ",
  "415": "loo",
  "416": "ab",
  "417": "ent ",
  "418": "ol",
  "419": "bi",
  "420": "ack ",
  "421": ". I",
  "422": "said, \"",
  "423": "smil",
  "424": ". Th",
  "425": "to the ",
  "426": "day, ",
  "427": "go",
  "428": "no",
  "429": "on a ",
  "430": "e and ",
  "431": "id ",
  "432": "ro",
  "433": "were ",
  "434": "One ",
  "435": "in ",
  "436": "out ",
  "437": "on ",
  "438": "y and ",
  "439": "the",
  "440": "car",
  "441": "! ",
  "442": "ag",
  "443": "there was a ",
  "444": "friend",
  "445": "upon a ",
  "446": "ep",
  "447": "Once upon a ",
  "448": "Once upon a tim",
  "449": "'t ",
  "450": "es",
  "451": "ver ",
  "452": "you ",
  "453": "but ",
  "454": "ear",
  "455": "my ",
  "456": "ent",
  "457": "um",
  "458": "one ",
  "459": "is ",
  "460": "et",
  "461": "ed the ",
  "462": "thing ",
  "463": "said ",
  "464": "s and ",
  "465": "ow ",
  "466": "gr",
  "467": "for ",
  "468": "big ",
  "469": "ght ",
  "470": "ake ",
  "471": "little girl ",
  "472": "\"\n\n",
  "473": "hel",
  "474": "play",
  "475": "I ",
  "476": "some",
  "477": ". They ",
  "478": "be ",
  "479": "se ",
  "480": "wanted to ",
  "481": ".Once upon a tim",
  "482": "ther",
  "483": "ti",
  "484": ". It ",
  "485": "dd",
  "486": "went ",
  "487": "One day, ",
  "488": "al ",
  "489": "was very ",
  "490": "exc",
  "491": "way",
  "492": "par",
  "493": "hat ",
  "494": ".\n\nThe ",
  "495": "sid",
  "496": "ful ",
  "497": "excit",
  "498": "pl",
  "499": "fe",
  "500": "fr",
  "501": "is",
  "502": "ter ",
  "503": "bu",
  "504": "op",
  "505": "n ",
  "506": "ain",
  "507": "looked ",
  "508": "would ",
  "509": "mu",
  "510": "help",
  "511": "au",
  "512": "star",
  "513": "ther ",
  "514": ", and ",
  "515": "day ",
  "516": "n't ",
  "517": "oo",
  "518": "ved ",
  "519": "around ",
  "520": "boy ",
  "521": "wor",
  "522": "f ",
  "523": "fel",
  "524": "me",
  "525": "could ",
  "526": "saw",
  "527": "something ",
  "528": "new ",
  "529": "king ",
  "530": "Jo",
  "531": "of the ",
  "532": ". A",
  "533": "ill ",
  "534": "ld",
  "535": "very",
  "536": "ch ",
  "537": "tt",
  "538": "go ",
  "539": "led ",
  "540": "him",
  "541": "ind ",
  "542": "wal",
  "543": "ran ",
  "544": "nam",
  "545": "it was ",
  "546": "es ",
  "547": "out",
  "548": "uc",
  "549": "as ",
  "550": "and",
  "551": "qu",
  "552": "felt ",
  "553": "Wh",
  "554": "fun",
  "555": "old ",
  "556": ", but ",
  "557": "have ",
  "558": "hom",
  "559": "spec",
  "560": "e. ",
  "561": "mor",
  "562": "com",
  "563": "ly, ",
  "564": "tr",
  "565": "low",
  "566": "But ",
  "567": "dec",
  "568": "back ",
  "569": "happy ",
  "570": "toge",
  "571": "Tim",
  "572": "ir ",
  "573": "br",
  "574": "pr",
  "575": "when ",
  "576": "speci",
  "577": "udd",
  "578": "decid",
  "579": "Jack ",
  "580": "smiled and ",
  "581": ".Once upon a time, ",
  "582": "ach",
  "583": "do",
  "584": "found ",
  "585": "saw a ",
  "586": "ame ",
  "587": ", the ",
  "588": "who ",
  "589": "str",
  "590": "ght",
  "591": "named ",
  "592": "can ",
  "593": "mo",
  "594": "too",
  "595": "bir",
  "596": "mad",
  "597": "asked ",
  "598": "fi",
  "599": "mom ",
  "600": "got ",
  "601": "ke",
  "602": "again",
  "603": "up ",
  "604": "udden",
  "605": "saw ",
  "606": "their ",
  "607": "then ",
  "608": "Ã¢â¬Å",
  "609": "Ã¢â¬Å",
  "610": "on the ",
  "611": "!\" ",
  "612": "ound",
  "613": ". E",
  "614": "mom",
  "615": "tre",
  "616": "dow",
  "617": "thing",
  "618": "jo",
  "619": "ways ",
  "620": "like ",
  "621": "ful",
  "622": "get ",
  "623": "made ",
  "624": "decided to ",
  "625": "play ",
  "626": "cou",
  "627": "playing ",
  "628": "ard",
  "629": "her",
  "630": "ug",
  "631": ", she ",
  "632": "sur",
  "633": "always ",
  "634": "thou",
  "635": "started to ",
  "636": "came ",
  "637": "ack",
  "638": "av",
  "639": "way ",
  "640": "never ",
  "641": "Ã¢â¬â",
  "642": "ily ",
  "643": "friends ",
  "644": "had a ",
  "645": "him ",
  "646": "so",
  "647": ".\" ",
  "648": "clo",
  "649": "what ",
  "650": "pped ",
  "651": "e the ",
  "652": ".\"\n\n",
  "653": "ly",
  "654": "take ",
  "655": ". \n\nThe ",
  "656": "t's ",
  "657": "special ",
  "658": "di",
  "659": "wat",
  "660": "hear",
  "661": "ave ",
  "662": "make ",
  "663": "scar",
  "664": "too ",
  "665": "about ",
  "666": "some ",
  "667": "put ",
  "668": "cre",
  "669": "Joh",
  "670": "lov",
  "671": "pe",
  "672": "not ",
  "673": "sun",
  "674": "could",
  "675": "sk",
  "676": ".Once upon a time, there was a ",
  "677": "friends",
  "678": "Ã¢â¬â",
  "679": "Ã¢â¬â¢",
  "680": "than",
  "681": "we",
  "682": "der",
  "683": "ick",
  "684": "every",
  "685": "at the ",
  "686": "ev",
  "687": "ted ",
  "688": "ts ",
  "689": "When ",
  "690": "e to ",
  "691": "ust ",
  "692": "thought ",
  "693": "ast",
  "694": "outsid",
  "695": "ant ",
  "696": "expl",
  "697": "explor",
  "698": "ed, ",
  "699": "goo",
  "700": "war",
  "701": "ed her ",
  "702": "uddenly, ",
  "703": "help ",
  "704": "co",
  "705": "sel",
  "706": "abb",
  "707": "?\" ",
  "708": "ugh",
  "709": "cal",
  "710": "e.\n\n",
  "711": "po",
  "712": "care",
  "713": "dy ",
  "714": "ong",
  "715": "ar ",
  "716": "Tim ",
  "717": "man ",
  "718": "pu",
  "719": "how ",
  "720": "ure",
  "721": "he was ",
  "722": "sta",
  "723": "tw",
  "724": "ally ",
  "725": "tic",
  "726": "she was ",
  "727": "hug",
  "728": "ho",
  "729": "bl",
  "730": "laugh",
  "731": "ed that ",
  "732": "ang",
  "733": "Fr",
  "734": "He ",
  "735": "them ",
  "736": "el ",
  "737": ". \"",
  "738": "am ",
  "739": "cr",
  "740": "ept ",
  "741": "gard",
  "742": "day",
  "743": "hou",
  "744": "oud ",
  "745": "e there was a ",
  "746": "chi",
  "747": "couldn't ",
  "748": "knew ",
  "749": "em",
  "750": "was so excit",
  "751": "Mom",
  "752": "in a ",
  "753": "tri",
  "754": "ny ",
  "755": ". He was ",
  "756": "do ",
  "757": "ea",
  "758": "us",
  "759": "\n\nThe ",
  "760": "fter ",
  "761": "thanked ",
  "762": "lear",
  "763": "for a ",
  "764": "happy",
  "765": "did",
  "766": "Luc",
  "767": "r ",
  "768": "heard ",
  "769": "find ",
  "770": "kn",
  "771": "the p",
  "772": "from",
  "773": "th ",
  "774": "ep ",
  "775": "other ",
  "776": "ump",
  "777": "ach ",
  "778": "together",
  "779": "!\"\n\n",
  "780": "Let",
  "781": ". One day, ",
  "782": "ong ",
  "783": "two ",
  "784": ", Ã¢â¬Å",
  "785": "ff",
  "786": "this ",
  "787": "You",
  "788": "gre",
  "789": "ed a ",
  "790": "small ",
  "791": "kept ",
  "792": "vent",
  "793": "John ",
  "794": "Mol",
  "795": "run",
  "796": ". But ",
  "797": "loved to ",
  "798": "whi",
  "799": "park",
  "800": "big",
  "801": "clos",
  "802": "feel",
  "803": "fore",
  "804": ", he ",
  "805": "beau",
  "806": "x ",
  "807": "called ",
  "808": "ts of ",
  "809": "won",
  "810": "har",
  "811": "ice ",
  "812": "much ",
  "813": "d and ",
  "814": "notic",
  "815": "cau",
  "816": "ving ",
  "817": "little boy ",
  "818": "insid",
  "819": "are ",
  "820": ". It was ",
  "821": "ind",
  "822": ". She was ",
  "823": "te",
  "824": "down",
  "825": "my",
  "826": ".\n\nS",
  "827": "man",
  "828": "with the ",
  "829": "to be ",
  "830": "gi",
  "831": "Da",
  "832": "watch",
  "833": "ous ",
  "834": "feeling ",
  "835": "ed, \"",
  "836": "or ",
  "837": "beauti",
  "838": "pri",
  "839": "t and ",
  "840": "don",
  "841": "til ",
  "842": "lots of ",
  "843": "e was ",
  "844": "pre",
  "845": "together ",
  "846": "around the ",
  "847": "pic",
  "848": "ough",
  "849": ",\" ",
  "850": "bel",
  "851": "ob",
  "852": ", so ",
  "853": "tter",
  "854": "stor",
  "855": "with a ",
  "856": ".Once upon a time there was a ",
  "857": "ing and ",
  "858": "more ",
  "859": "gave ",
  "860": "ite ",
  "861": "ah",
  "862": "until ",
  "863": "didn't ",
  "864": "ck",
  "865": "found a ",
  "866": "plac",
  "867": "lived ",
  "868": "col",
  "869": "will ",
  "870": "anim",
  "871": "fun ",
  "872": "see ",
  "873": "if ",
  "874": "quick",
  "875": "just ",
  "876": "ss",
  "877": "surpri",
  "878": "Jim",
  "879": "happy and ",
  "880": "Let's ",
  "881": "ll ",
  "882": "told ",
  "883": "sad",
  "884": "You ",
  "885": "bird ",
  "886": ". T",
  "887": "advent",
  "888": ".\n\nOne day, ",
  "889": "things ",
  "890": "with his ",
  "891": "from the ",
  "892": "er and ",
  "893": "jump",
  "894": "az",
  "895": "year",
  "896": "Jan",
  "897": "with her ",
  "898": "your ",
  "899": "e. He ",
  "900": "into the ",
  "901": "flow",
  "902": "cl",
  "903": "thre",
  "904": "said, Ã¢â¬Å",
  "905": "mag",
  "906": "ing the ",
  "907": "best ",
  "908": "from ",
  "909": "even ",
  "910": "any",
  "911": "cu",
  "912": "Ã¢â¬ ",
  "913": "joy",
  "914": "ever ",
  "915": "ma",
  "916": "ni",
  "917": "ey",
  "918": "away ",
  "919": "he had ",
  "920": "room",
  "921": "them",
  "922": "sh ",
  "923": "that she ",
  "924": "ing to ",
  "925": "t to ",
  "926": "feel ",
  "927": "time ",
  "928": "learn",
  "929": "arah",
  "930": "con",
  "931": ".\n\n\"",
  "932": "fle",
  "933": "able ",
  "934": "ous",
  "935": "beautiful ",
  "936": "loved ",
  "937": "tur",
  "938": "Lucy ",
  "939": "ter",
  "940": "by",
  "941": "k and ",
  "942": "From ",
  "943": "proud ",
  "944": "walking ",
  "945": "away",
  "946": "del",
  "947": "One day ",
  "948": "I'",
  "949": "over ",
  "950": "Dais",
  "951": "we ",
  "952": "An",
  "953": "ry ",
  "954": "end",
  "955": "by ",
  "956": "soon ",
  "957": "sto",
  "958": "open",
  "959": "wonder",
  "960": "de",
  "961": "all the ",
  "962": "hugg",
  "963": "come ",
  "964": "up and ",
  "965": "es, ",
  "966": "fin",
  "967": "p ",
  "968": "ummy ",
  "969": "no ",
  "970": "amaz",
  "971": "rabb",
  "972": "Molly ",
  "973": "sw",
  "974": "friend ",
  "975": "es and ",
  "976": "good",
  "977": "Ma",
  "978": "ask",
  "979": "careful",
  "980": "magic",
  "981": "becau",
  "982": "because ",
  "983": "mb",
  "984": "e. She ",
  "985": "beg",
  "986": "si",
  "987": "bird",
  "988": "quickly ",
  "989": "smiled and said, \"",
  "990": "each ",
  "991": "memb",
  "992": "its ",
  "993": "and the ",
  "994": ". Every",
  "995": "read",
  "996": "was so happy ",
  "997": "started ",
  "998": "What ",
  "999": "fam",
  "1000": "<|endoftext|>"
}