{
  "0": "\u0000",
  "1": "\u0001",
  "2": "\u0002",
  "3": "\u0003",
  "4": "\u0004",
  "5": "\u0005",
  "6": "\u0006",
  "7": "\u0007",
  "8": "\b",
  "9": "\t",
  "10": "\n",
  "11": "\u000b",
  "12": "\f",
  "13": "\r",
  "14": "\u000e",
  "15": "\u000f",
  "16": "\u0010",
  "17": "\u0011",
  "18": "\u0012",
  "19": "\u0013",
  "20": "\u0014",
  "21": "\u0015",
  "22": "\u0016",
  "23": "\u0017",
  "24": "\u0018",
  "25": "\u0019",
  "26": "\u001a",
  "27": "\u001b",
  "28": "\u001c",
  "29": "\u001d",
  "30": "\u001e",
  "31": "\u001f",
  "32": " ",
  "33": "!",
  "34": "\"",
  "35": "#",
  "36": "$",
  "37": "%",
  "38": "&",
  "39": "'",
  "40": "(",
  "41": ")",
  "42": "*",
  "43": "+",
  "44": ",",
  "45": "-",
  "46": ".",
  "47": "/",
  "48": "0",
  "49": "1",
  "50": "2",
  "51": "3",
  "52": "4",
  "53": "5",
  "54": "6",
  "55": "7",
  "56": "8",
  "57": "9",
  "58": ":",
  "59": ";",
  "60": "<",
  "61": "=",
  "62": ">",
  "63": "?",
  "64": "@",
  "65": "A",
  "66": "B",
  "67": "C",
  "68": "D",
  "69": "E",
  "70": "F",
  "71": "G",
  "72": "H",
  "73": "I",
  "74": "J",
  "75": "K",
  "76": "L",
  "77": "M",
  "78": "N",
  "79": "O",
  "80": "P",
  "81": "Q",
  "82": "R",
  "83": "S",
  "84": "T",
  "85": "U",
  "86": "V",
  "87": "W",
  "88": "X",
  "89": "Y",
  "90": "Z",
  "91": "[",
  "92": "\\",
  "93": "]",
  "94": "^",
  "95": "_",
  "96": "`",
  "97": "a",
  "98": "b",
  "99": "c",
  "100": "d",
  "101": "e",
  "102": "f",
  "103": "g",
  "104": "h",
  "105": "i",
  "106": "j",
  "107": "k",
  "108": "l",
  "109": "m",
  "110": "n",
  "111": "o",
  "112": "p",
  "113": "q",
  "114": "r",
  "115": "s",
  "116": "t",
  "117": "u",
  "118": "v",
  "119": "w",
  "120": "x",
  "121": "y",
  "122": "z",
  "123": "{",
  "124": "|",
  "125": "}",
  "126": "~",
  "127": "",
  "128": "",
  "129": "",
  "130": "",
  "131": "",
  "132": "",
  "133": "",
  "134": "",
  "135": "",
  "136": "",
  "137": "",
  "138": "",
  "139": "",
  "140": "",
  "141": "",
  "142": "",
  "143": "",
  "144": "",
  "145": "",
  "146": "",
  "147": "",
  "148": "",
  "149": "",
  "150": "",
  "151": "",
  "152": "",
  "153": "",
  "154": "",
  "155": "",
  "156": "",
  "157": "",
  "158": "",
  "159": "",
  "160": " ",
  "161": "¡",
  "162": "¢",
  "163": "£",
  "164": "¤",
  "165": "¥",
  "166": "¦",
  "167": "§",
  "168": "¨",
  "169": "©",
  "170": "ª",
  "171": "«",
  "172": "¬",
  "173": "­",
  "174": "®",
  "175": "¯",
  "176": "°",
  "177": "±",
  "178": "²",
  "179": "³",
  "180": "´",
  "181": "µ",
  "182": "¶",
  "183": "·",
  "184": "¸",
  "185": "¹",
  "186": "º",
  "187": "»",
  "188": "¼",
  "189": "½",
  "190": "¾",
  "191": "¿",
  "192": "À",
  "193": "Á",
  "194": "Â",
  "195": "Ã",
  "196": "Ä",
  "197": "Å",
  "198": "Æ",
  "199": "Ç",
  "200": "È",
  "201": "É",
  "202": "Ê",
  "203": "Ë",
  "204": "Ì",
  "205": "Í",
  "206": "Î",
  "207": "Ï",
  "208": "Ð",
  "209": "Ñ",
  "210": "Ò",
  "211": "Ó",
  "212": "Ô",
  "213": "Õ",
  "214": "Ö",
  "215": "×",
  "216": "Ø",
  "217": "Ù",
  "218": "Ú",
  "219": "Û",
  "220": "Ü",
  "221": "Ý",
  "222": "Þ",
  "223": "ß",
  "224": "à",
  "225": "á",
  "226": "â",
  "227": "ã",
  "228": "ä",
  "229": "å",
  "230": "æ",
  "231": "ç",
  "232": "è",
  "233": "é",
  "234": "ê",
  "235": "ë",
  "236": "ì",
  "237": "í",
  "238": "î",
  "239": "ï",
  "240": "ð",
  "241": "ñ",
  "242": "ò",
  "243": "ó",
  "244": "ô",
  "245": "õ",
  "246": "ö",
  "247": "÷",
  "248": "ø",
  "249": "ù",
  "250": "ú",
  "251": "û",
  "252": "ü",
  "253": "ý",
  "254": "þ",
  "255": "ÿ",
  "256": "he",
  "257": " t",
  "258": " a",
  "259": " s",
  "260": " w",
  "261": " the",
  "262": "nd",
  "263": "ed",
  "264": "in",
  "265": " wa",
  "266": " b",
  "267": " and",
  "268": " to",
  "269": " h",
  "270": "re",
  "271": "it",
  "272": " f",
  "273": "ou",
  "274": "er",
  "275": " was",
  "276": " he",
  "277": " l",
  "278": " c",
  "279": "ing",
  "280": " d",
  "281": " o",
  "282": "\n\n",
  "283": " m",
  "284": " p",
  "285": " g",
  "286": "ar",
  "287": "at",
  "288": "ll",
  "289": "om",
  "290": "ay",
  "291": "is",
  "292": "en",
  "293": "id",
  "294": "The",
  "295": "ne",
  "296": "le",
  "297": " sa",
  "298": "an",
  "299": " ha",
  "300": " th",
  "301": "im",
  "302": " it",
  "303": "or",
  "304": "et",
  "305": "ver",
  "306": " S",
  "307": " e",
  "308": "ld",
  "309": " in",
  "310": "on",
  "311": "ir",
  "312": " H",
  "313": ".\n\n",
  "314": " her",
  "315": " be",
  "316": " she",
  "317": " so",
  "318": "ow",
  "319": "ac",
  "320": " u",
  "321": " He",
  "322": " The",
  "323": " st",
  "324": " r",
  "325": " n",
  "326": " of",
  "327": "ot",
  "328": " said",
  "329": "st",
  "330": "ut",
  "331": " She",
  "332": "ig",
  "333": "ked",
  "334": "very",
  "335": "pp",
  "336": "ly",
  "337": "oo",
  "338": "ce",
  "339": " \"",
  "340": "ke",
  "341": "ri",
  "342": "ve",
  "343": " y",
  "344": " that",
  "345": " his",
  "346": " day",
  "347": " up",
  "348": "am",
  "349": "itt",
  "350": " \n\n",
  "351": "ad",
  "352": " I",
  "353": "ted",
  "354": " had",
  "355": "ith",
  "356": "ent",
  "357": "ould",
  "358": " with",
  "359": "ittle",
  "360": "el",
  "361": "ound",
  "362": "ic",
  "363": " little",
  "364": " pl",
  "365": "il",
  "366": "al",
  "367": "ack",
  "368": " we",
  "369": "ime",
  "370": " you",
  "371": "out",
  "372": " sm",
  "373": " time",
  "374": "un",
  "375": " J",
  "376": " re",
  "377": " there",
  "378": "her",
  "379": " for",
  "380": " on",
  "381": " they",
  "382": "ec",
  "383": "irl",
  "384": " wh",
  "385": " ne",
  "386": " girl",
  "387": " very",
  "388": "all",
  "389": "end",
  "390": "ome",
  "391": "ht",
  "392": " happ",
  "393": "se",
  "394": " sh",
  "395": "Ã¢",
  "396": "â",
  "397": "â¬",
  "398": "'s",
  "399": "es",
  "400": "On",
  "401": " as",
  "402": " play",
  "403": "ug",
  "404": " ex",
  "405": "Once",
  "406": " fri",
  "407": " friend",
  "408": " an",
  "409": " bo",
  "410": " k",
  "411": "ter",
  "412": " sp",
  "413": " loo",
  "414": "ore",
  "415": " wan",
  "416": "hing",
  "417": "ved",
  "418": " but",
  "419": "my",
  "420": "um",
  "421": " big",
  "422": "ill",
  "423": "fu",
  "424": " were",
  "425": " happy",
  "426": "round",
  "427": " saw",
  "428": " li",
  "429": "One",
  "430": " out",
  "431": "uc",
  "432": "ide",
  "433": "ard",
  "434": "way",
  "435": " upon",
  "436": "ake",
  "437": " could",
  "438": "'t",
  "439": "one",
  "440": " him",
  "441": " j",
  "442": "hen",
  "443": "iled",
  "444": ".Once",
  "445": " It",
  "446": " T",
  "447": "ra",
  "448": " wanted",
  "449": " A",
  "450": " all",
  "451": " mom",
  "452": " smiled",
  "453": "ful",
  "454": "ur",
  "455": " go",
  "456": "ind",
  "457": " M",
  "458": " se",
  "459": " They",
  "460": "ain",
  "461": " too",
  "462": " B",
  "463": "!\"",
  "464": ".\"",
  "465": "hed",
  "466": " went",
  "467": " around",
  "468": " at",
  "469": "ry",
  "470": " do",
  "471": " friends",
  "472": " boy",
  "473": "rom",
  "474": "are",
  "475": " hel",
  "476": " exc",
  "477": "omet",
  "478": " would",
  "479": " excit",
  "480": "dd",
  "481": "king",
  "482": " somet",
  "483": " looked",
  "484": "ight",
  "485": " E",
  "486": " fe",
  "487": " lo",
  "488": " cl",
  "489": "oug",
  "490": "ure",
  "491": " back",
  "492": " help",
  "493": "ame",
  "494": " something",
  "495": " star",
  "496": " not",
  "497": "ood",
  "498": "side",
  "499": " L",
  "500": " al",
  "501": "ss",
  "502": "ear",
  "503": "get",
  "504": "ark",
  "505": "ag",
  "506": " asked",
  "507": " excited",
  "508": "ree",
  "509": "nt",
  "510": " ran",
  "511": " started",
  "512": " wor",
  "513": "ong",
  "514": " ag",
  "515": "ab",
  "516": " ch",
  "517": " no",
  "518": "ily",
  "519": " can",
  "520": "pl",
  "521": " then",
  "522": "gether",
  "523": "ie",
  "524": "?\"",
  "525": "elt",
  "526": " felt",
  "527": "qu",
  "528": "ep",
  "529": " fun",
  "530": "pped",
  "531": " when",
  "532": "ace",
  "533": " man",
  "534": "ro",
  "535": " away",
  "536": " home",
  "537": " wal",
  "538": " old",
  "539": "lly",
  "540": "ade",
  "541": " every",
  "542": " have",
  "543": " dec",
  "544": "ice",
  "545": " who",
  "546": "amed",
  "547": " them",
  "548": " together",
  "549": "ast",
  "550": "aug",
  "551": "ous",
  "552": " found",
  "553": " get",
  "554": " again",
  "555": "udd",
  "556": " One",
  "557": "ided",
  "558": "ust",
  "559": " v",
  "560": " loved",
  "561": "ave",
  "562": " W",
  "563": "eci",
  "564": " ab",
  "565": " me",
  "566": " decided",
  "567": " from",
  "568": "hat",
  "569": "op",
  "570": "own",
  "571": "us",
  "572": " speci",
  "573": " special",
  "574": " sc",
  "575": " some",
  "576": " named",
  "577": " Jack",
  "578": "ick",
  "579": " bir",
  "580": "udden",
  "581": " feel",
  "582": "uch",
  "583": " co",
  "584": " D",
  "585": " like",
  "586": " playing",
  "587": " see",
  "588": " their",
  "589": "â¬Å",
  "590": "â¬Å",
  "591": " Ã¢",
  "592": " is",
  "593": "uddenly",
  "594": " made",
  "595": " than",
  "596": " park",
  "597": "as",
  "598": "if",
  "599": "ought",
  "600": " did",
  "601": "ran",
  "602": " Tim",
  "603": "ways",
  "604": " pr",
  "605": " bird",
  "606": "ally",
  "607": " got",
  "608": " thing",
  "609": "low",
  "610": " always",
  "611": "ile",
  "612": " care",
  "613": " what",
  "614": " Jo",
  "615": " make",
  "616": " ke",
  "617": "pt",
  "618": " never",
  "619": "ant",
  "620": "â¬â",
  "621": "ther",
  "622": "ch",
  "623": " expl",
  "624": "ared",
  "625": " other",
  "626": " new",
  "627": " Every",
  "628": "nder",
  "629": "oud",
  "630": " qu",
  "631": " one",
  "632": " take",
  "633": " ro",
  "634": ".\"\n\n",
  "635": " about",
  "636": "ouse",
  "637": "ny",
  "638": " down",
  "639": " int",
  "640": "and",
  "641": "ky",
  "642": " en",
  "643": "os",
  "644": " lot",
  "645": " put",
  "646": " tw",
  "647": "hn",
  "648": " sad",
  "649": "ge",
  "650": " sun",
  "651": "reat",
  "652": " But",
  "653": " kne",
  "654": " thought",
  "655": " br",
  "656": "â¬â",
  "657": "â¬â¢",
  "658": " bec",
  "659": " F",
  "660": " hug",
  "661": " bl",
  "662": "fter",
  "663": "ate",
  "664": "ise",
  "665": " mo",
  "666": " gra",
  "667": " outside",
  "668": "ma",
  "669": " good",
  "670": " po",
  "671": " how",
  "672": " fo",
  "673": "our",
  "674": " much",
  "675": "vent",
  "676": " this",
  "677": "ach",
  "678": "em",
  "679": "ite",
  "680": " ad",
  "681": " small",
  "682": "ried",
  "683": " couldn",
  "684": " into",
  "685": " knew",
  "686": " things",
  "687": "ummy",
  "688": " le",
  "689": "ven",
  "690": " call",
  "691": "ist",
  "692": " laug",
  "693": "fe",
  "694": " scared",
  "695": " find",
  "696": "now",
  "697": "ell",
  "698": " took",
  "699": "ck",
  "700": " more",
  "701": "dy",
  "702": " came",
  "703": " gard",
  "704": " garden",
  "705": " tree",
  "706": " dad",
  "707": " water",
  "708": "ened",
  "709": " two",
  "710": "ret",
  "711": " way",
  "712": "ged",
  "713": " off",
  "714": "ers",
  "715": " my",
  "716": "oy",
  "717": "ump",
  "718": "ane",
  "719": "olly",
  "720": " thanked",
  "721": "ving",
  "722": " sw",
  "723": " called",
  "724": " pe",
  "725": "ning",
  "726": " look",
  "727": " heard",
  "728": " soon",
  "729": "ucy",
  "730": " ho",
  "731": "!\"\n\n",
  "732": "elf",
  "733": " bea",
  "734": " sky",
  "735": "ommy",
  "736": "ion",
  "737": " any",
  "738": "You",
  "739": " kept",
  "740": " stay",
  "741": "iced",
  "742": " wat",
  "743": " lear",
  "744": " clos",
  "745": " beaut",
  "746": "urp",
  "747": " run",
  "748": "ue",
  "749": "ough",
  "750": "ild",
  "751": "ady",
  "752": "ned",
  "753": " toy",
  "754": " inside",
  "755": " feeling",
  "756": " wo",
  "757": ",\"",
  "758": " noticed",
  "759": " over",
  "760": "ber",
  "761": " long",
  "762": "able",
  "763": "ap",
  "764": "!\n\n",
  "765": " So",
  "766": " proud",
  "767": " tr",
  "768": "So",
  "769": " didn",
  "770": " beauti",
  "771": " beautiful",
  "772": "ive",
  "773": " your",
  "774": "ched",
  "775": " will",
  "776": " house",
  "777": " if",
  "778": "ntil",
  "779": " lots",
  "780": "self",
  "781": "When",
  "782": "bb",
  "783": " fast",
  "784": " rem",
  "785": "ort",
  "786": " know",
  "787": "au",
  "788": " quick",
  "789": " even",
  "790": " want",
  "791": " gave",
  "792": " walking",
  "793": " until",
  "794": " op",
  "795": " Then",
  "796": "uck",
  "797": " car",
  "798": " lived",
  "799": " anim",
  "800": " animal",
  "801": "here",
  "802": " pu",
  "803": " just",
  "804": " bear",
  "805": "fore",
  "806": " explore",
  "807": " surp",
  "808": " surpr",
  "809": " bot",
  "810": " told",
  "811": " best",
  "812": " cat",
  "813": "ob",
  "814": " show",
  "815": " advent",
  "816": "ess",
  "817": "It",
  "818": "other",
  "819": "isy",
  "820": " G",
  "821": " laughed",
  "822": " ground",
  "823": " jump",
  "824": "aisy",
  "825": " need",
  "826": " And",
  "827": " tried",
  "828": " flow",
  "829": "zed",
  "830": " adventure",
  "831": " before",
  "832": "ish",
  "833": "etter",
  "834": " now",
  "835": "by",
  "836": " by",
  "837": " com",
  "838": "'m",
  "839": " mag",
  "840": " quickly",
  "841": " liked",
  "842": " everyone",
  "843": "ara",
  "844": " te",
  "845": " come",
  "846": " boat",
  "847": "bit",
  "848": " John",
  "849": "rong",
  "850": "ine",
  "851": "ious",
  "852": "arah",
  "853": " im",
  "854": " wonder",
  "855": "aught",
  "856": " year",
  "857": "abbit",
  "858": " sto",
  "859": "lew",
  "860": " kind",
  "861": "ger",
  "862": "!Once",
  "863": " room",
  "864": "ause",
  "865": "Let",
  "866": " pic",
  "867": " hugged",
  "868": " try",
  "869": " cu",
  "870": "Jo",
  "871": " war",
  "872": "joy",
  "873": "That",
  "874": " bu",
  "875": "gan",
  "876": " ama",
  "877": " Joe",
  "878": " ar",
  "879": " fr",
  "880": " rabbit",
  "881": " mum",
  "882": " Lily",
  "883": " each",
  "884": " hand",
  "885": " del",
  "886": "ting",
  "887": " three",
  "888": " Suddenly",
  "889": " magic",
  "890": " because",
  "891": " better",
  "892": " are",
  "893": " bug",
  "894": " closer",
  "895": "ised",
  "896": "What",
  "897": "Suddenly",
  "898": "â¬\n\n",
  "899": " ever",
  "900": " don",
  "901": "led",
  "902": " smile",
  "903": " end",
  "904": " ey",
  "905": "lo",
  "906": " us",
  "907": " con",
  "908": " walked",
  "909": "art",
  "910": " child",
  "911": " Her",
  "912": " watched",
  "913": " its",
  "914": " fam",
  "915": "ary",
  "916": " flew",
  "917": " enjoy",
  "918": " careful",
  "919": "ink",
  "920": "Jack",
  "921": " vo",
  "922": " Daisy",
  "923": " fin",
  "924": "ax",
  "925": " Sam",
  "926": " fore",
  "927": " de",
  "928": "ook",
  "929": " seen",
  "930": " Lucy",
  "931": "thing",
  "932": " \n",
  "933": " Jane",
  "934": " remem",
  "935": "ase",
  "936": "ank",
  "937": " great",
  "938": " still",
  "939": " His",
  "940": "lie",
  "941": "But",
  "942": " stran",
  "943": " ac",
  "944": "!Ã¢",
  "945": "immy",
  "946": " both",
  "947": " wait",
  "948": " Sarah",
  "949": "?\"\n\n",
  "950": " stopped",
  "951": " gr",
  "952": "ople",
  "953": " played",
  "954": "ak",
  "955": " animals",
  "956": " tow",
  "957": " family",
  "958": " eyes",
  "959": "ush",
  "960": " box",
  "961": " che",
  "962": " looking",
  "963": " people",
  "964": " Molly",
  "965": "xt",
  "966": " remember",
  "967": " while",
  "968": "bye",
  "969": " fa",
  "970": " ow",
  "971": " bra",
  "972": "igh",
  "973": " dan",
  "974": " began",
  "975": " sure",
  "976": " P",
  "977": "John",
  "978": "ppy",
  "979": " place",
  "980": " going",
  "981": "age",
  "982": " opened",
  "983": " hard",
  "984": "enny",
  "985": " world",
  "986": "He",
  "987": " voice",
  "988": " puppy",
  "989": " C",
  "990": "th",
  "991": " goodbye",
  "992": " As",
  "993": "day",
  "994": " bed",
  "995": "ool",
  "996": "fully",
  "997": "ient",
  "998": " been",
  "999": ".Ã¢",
  "1000": "<|endoftext|>"
}